/* Copyright 2020 The TensorFlow Authors. All Rights Reserved.

Licensed under the Apache License, Version 2.0 (the "License");
you may not use this file except in compliance with the License.
You may obtain a copy of the License at

    http://www.apache.org/licenses/LICENSE-2.0

Unless required by applicable law or agreed to in writing, software
distributed under the License is distributed on an "AS IS" BASIS,
WITHOUT WARRANTIES OR CONDITIONS OF ANY KIND, either express or implied.
See the License for the specific language governing permissions and
limitations under the License.
==============================================================================*/

// Automatically created from a TensorFlow Lite flatbuffer using the command:
// xxd -i model.tflite > model.cc

// This is a standard TensorFlow Lite model file that has been converted into a
// C data array, so it can be easily compiled into a binary for devices that
// don't have a file system.

// See train/README.md for a full description of the creation process.

#include "model.h"

// Keep model aligned to 8 bytes to guarantee aligned 64-bit accesses.
alignas(8) const unsigned char g_model[] = {
  0x1c, 0x00, 0x00, 0x00, 0x54, 0x46, 0x4c, 0x33, 0x14, 0x00, 0x20, 0x00,
  0x1c, 0x00, 0x18, 0x00, 0x14, 0x00, 0x10, 0x00, 0x0c, 0x00, 0x00, 0x00,
  0x08, 0x00, 0x04, 0x00, 0x14, 0x00, 0x00, 0x00, 0x1c, 0x00, 0x00, 0x00,
  0x84, 0x00, 0x00, 0x00, 0xdc, 0x00, 0x00, 0x00, 0x30, 0x0c, 0x00, 0x00,
  0x40, 0x0c, 0x00, 0x00, 0x98, 0x13, 0x00, 0x00, 0x03, 0x00, 0x00, 0x00,
  0x01, 0x00, 0x00, 0x00, 0x04, 0x00, 0x00, 0x00, 0x7a, 0xf3, 0xff, 0xff,
  0x0c, 0x00, 0x00, 0x00, 0x1c, 0x00, 0x00, 0x00, 0x38, 0x00, 0x00, 0x00,
  0x0f, 0x00, 0x00, 0x00, 0x73, 0x65, 0x72, 0x76, 0x69, 0x6e, 0x67, 0x5f,
  0x64, 0x65, 0x66, 0x61, 0x75, 0x6c, 0x74, 0x00, 0x01, 0x00, 0x00, 0x00,
  0x04, 0x00, 0x00, 0x00, 0x98, 0xff, 0xff, 0xff, 0x0e, 0x00, 0x00, 0x00,
  0x04, 0x00, 0x00, 0x00, 0x07, 0x00, 0x00, 0x00, 0x64, 0x65, 0x6e, 0x73,
  0x65, 0x5f, 0x33, 0x00, 0x01, 0x00, 0x00, 0x00, 0x04, 0x00, 0x00, 0x00,
  0x0e, 0xf3, 0xff, 0xff, 0x04, 0x00, 0x00, 0x00, 0x0b, 0x00, 0x00, 0x00,
  0x64, 0x65, 0x6e, 0x73, 0x65, 0x5f, 0x69, 0x6e, 0x70, 0x75, 0x74, 0x00,
  0x02, 0x00, 0x00, 0x00, 0x34, 0x00, 0x00, 0x00, 0x04, 0x00, 0x00, 0x00,
  0xdc, 0xff, 0xff, 0xff, 0x11, 0x00, 0x00, 0x00, 0x04, 0x00, 0x00, 0x00,
  0x13, 0x00, 0x00, 0x00, 0x43, 0x4f, 0x4e, 0x56, 0x45, 0x52, 0x53, 0x49,
  0x4f, 0x4e, 0x5f, 0x4d, 0x45, 0x54, 0x41, 0x44, 0x41, 0x54, 0x41, 0x00,
  0x08, 0x00, 0x0c, 0x00, 0x08, 0x00, 0x04, 0x00, 0x08, 0x00, 0x00, 0x00,
  0x10, 0x00, 0x00, 0x00, 0x04, 0x00, 0x00, 0x00, 0x13, 0x00, 0x00, 0x00,
  0x6d, 0x69, 0x6e, 0x5f, 0x72, 0x75, 0x6e, 0x74, 0x69, 0x6d, 0x65, 0x5f,
  0x76, 0x65, 0x72, 0x73, 0x69, 0x6f, 0x6e, 0x00, 0x12, 0x00, 0x00, 0x00,
  0x50, 0x0b, 0x00, 0x00, 0x48, 0x0b, 0x00, 0x00, 0x38, 0x0a, 0x00, 0x00,
  0x1c, 0x0a, 0x00, 0x00, 0x0c, 0x09, 0x00, 0x00, 0xf8, 0x08, 0x00, 0x00,
  0xe8, 0x05, 0x00, 0x00, 0xd8, 0x04, 0x00, 0x00, 0xc8, 0x03, 0x00, 0x00,
  0xb8, 0x00, 0x00, 0x00, 0xb0, 0x00, 0x00, 0x00, 0xa8, 0x00, 0x00, 0x00,
  0xa0, 0x00, 0x00, 0x00, 0x98, 0x00, 0x00, 0x00, 0x90, 0x00, 0x00, 0x00,
  0x88, 0x00, 0x00, 0x00, 0x68, 0x00, 0x00, 0x00, 0x04, 0x00, 0x00, 0x00,
  0xce, 0xf3, 0xff, 0xff, 0x04, 0x00, 0x00, 0x00, 0x54, 0x00, 0x00, 0x00,
  0x0c, 0x00, 0x00, 0x00, 0x08, 0x00, 0x0e, 0x00, 0x08, 0x00, 0x04, 0x00,
  0x08, 0x00, 0x00, 0x00, 0x10, 0x00, 0x00, 0x00, 0x24, 0x00, 0x00, 0x00,
  0x00, 0x00, 0x06, 0x00, 0x08, 0x00, 0x04, 0x00, 0x06, 0x00, 0x00, 0x00,
  0x04, 0x00, 0x00, 0x00, 0x00, 0x00, 0x00, 0x00, 0x00, 0x00, 0x0a, 0x00,
  0x10, 0x00, 0x0c, 0x00, 0x08, 0x00, 0x04, 0x00, 0x0a, 0x00, 0x00, 0x00,
  0x02, 0x00, 0x00, 0x00, 0x02, 0x00, 0x00, 0x00, 0x04, 0x00, 0x00, 0x00,
  0x05, 0x00, 0x00, 0x00, 0x32, 0x2e, 0x39, 0x2e, 0x32, 0x00, 0x00, 0x00,
  0x2e, 0xf4, 0xff, 0xff, 0x04, 0x00, 0x00, 0x00, 0x10, 0x00, 0x00, 0x00,
  0x31, 0x2e, 0x31, 0x34, 0x2e, 0x30, 0x00, 0x00, 0x00, 0x00, 0x00, 0x00,
  0x00, 0x00, 0x00, 0x00, 0x38, 0xee, 0xff, 0xff, 0x3c, 0xee, 0xff, 0xff,
  0x40, 0xee, 0xff, 0xff, 0x44, 0xee, 0xff, 0xff, 0x48, 0xee, 0xff, 0xff,
  0x4c, 0xee, 0xff, 0xff, 0x62, 0xf4, 0xff, 0xff, 0x04, 0x00, 0x00, 0x00,
  0x00, 0x03, 0x00, 0x00, 0x5b, 0x7e, 0x94, 0x3c, 0x74, 0x5d, 0x91, 0x3e,
  0x65, 0xf7, 0x8b, 0x3d, 0xf4, 0xa7, 0x5c, 0x3d, 0x0f, 0x6a, 0x4f, 0x3e,
  0x12, 0xe6, 0x8c, 0xbe, 0x27, 0xc2, 0x5b, 0xbe, 0xd7, 0x2b, 0x15, 0x3e,
  0xb2, 0x86, 0x3a, 0xbd, 0x2d, 0x14, 0x7d, 0xbe, 0x6b, 0xf6, 0x8e, 0xbd,
  0x1c, 0x0d, 0x97, 0xbb, 0x18, 0x2a, 0x8c, 0x3c, 0x31, 0x8c, 0x9a, 0x3d,
  0x7e, 0x1a, 0xa0, 0xbd, 0x9b, 0x9c, 0xac, 0x3d, 0x8f, 0x0f, 0x58, 0x3e,
  0xbd, 0x2c, 0x0e, 0x3d, 0x2a, 0xcc, 0x69, 0xbe, 0xa4, 0x24, 0xac, 0x3e,
  0x10, 0x53, 0x78, 0xbd, 0xe4, 0x0d, 0xa1, 0x3e, 0xf5, 0x67, 0x71, 0x3e,
  0x1d, 0x9f, 0xa1, 0x3e, 0x1f, 0x81, 0x97, 0xbe, 0x01, 0x00, 0x2e, 0xbe,
  0xe1, 0x5d, 0x4f, 0xbd, 0xfd, 0xd4, 0x60, 0x3e, 0x4c, 0xb3, 0x08, 0xbe,
  0xa0, 0xae, 0x55, 0x3d, 0xda, 0xcd, 0x9b, 0x3d, 0x5c, 0xcc, 0x60, 0x3e,
  0x9a, 0x47, 0xdc, 0x3d, 0x0e, 0x58, 0x65, 0x3d, 0xe6, 0x26, 0x79, 0x3d,
  0xa0, 0x93, 0x9e, 0x3e, 0x74, 0xa9, 0x74, 0xbe, 0xcb, 0x49, 0xa7, 0xbd,
  0x0b, 0xc5, 0x78, 0x3e, 0x03, 0xb4, 0x85, 0xbd, 0x4c, 0x9b, 0x85, 0x3e,
  0x09, 0x70, 0xbe, 0x3d, 0x3a, 0x64, 0x27, 0x3d, 0x00, 0xee, 0xa6, 0x3b,
  0xc6, 0x2c, 0x86, 0x3d, 0xcc, 0xe7, 0x25, 0x3e, 0xde, 0xa6, 0x62, 0x3e,
  0x59, 0x6a, 0x82, 0xbe, 0x0d, 0xed, 0x3a, 0x3d, 0xd3, 0x4b, 0x51, 0xbd,
  0x28, 0xcf, 0xb6, 0xbc, 0x28, 0x2b, 0x9e, 0x3d, 0x46, 0x8e, 0x5d, 0x3e,
  0xa3, 0x01, 0x90, 0xbe, 0xb9, 0xe0, 0x83, 0xbd, 0x5b, 0xe6, 0x93, 0x3e,
  0x9f, 0x17, 0x1d, 0x3e, 0x11, 0x12, 0x3f, 0xbd, 0x35, 0x27, 0x71, 0x3e,
  0xd4, 0x56, 0x49, 0x3d, 0xd1, 0x2b, 0x96, 0xbe, 0xc1, 0x85, 0x92, 0xbd,
  0xe2, 0x09, 0x4f, 0xbd, 0x13, 0xa5, 0x90, 0x3e, 0x3c, 0x43, 0xdd, 0xbc,
  0x02, 0xa7, 0x28, 0x3e, 0x28, 0x11, 0x51, 0x3d, 0x03, 0x98, 0x97, 0x3d,
  0x75, 0x18, 0x11, 0xbe, 0x40, 0xe4, 0x8b, 0xbe, 0x5a, 0x90, 0x80, 0x3e,
  0x48, 0x76, 0x6c, 0xbe, 0x25, 0x6c, 0x4f, 0xbc, 0xad, 0x06, 0xc2, 0xbd,
  0x7f, 0x7d, 0x33, 0x3d, 0xe9, 0xdc, 0x90, 0xbe, 0x55, 0x98, 0x4e, 0xbd,
  0x75, 0xb5, 0x4a, 0x3d, 0xe7, 0x63, 0xd3, 0x3c, 0x96, 0x0f, 0x74, 0x3d,
  0x11, 0xe4, 0xb5, 0x3e, 0x10, 0x5f, 0xb3, 0xbc, 0xa3, 0x76, 0x8a, 0x3e,
  0xfb, 0x3f, 0x77, 0x3e, 0x4f, 0xc1, 0xfb, 0x3c, 0xff, 0x06, 0x2d, 0x3e,
  0x07, 0xce, 0x28, 0x3e, 0xec, 0x6f, 0x3a, 0x3e, 0x8b, 0x9b, 0x57, 0xbe,
  0x59, 0x36, 0x99, 0xbd, 0x3b, 0x0a, 0x90, 0x3c, 0xe1, 0x3c, 0x15, 0x3e,
  0x48, 0x40, 0x85, 0x3e, 0x91, 0x4a, 0x40, 0x3c, 0xab, 0xb3, 0xc5, 0x3d,
  0xb0, 0x11, 0x4b, 0xbe, 0xf6, 0x31, 0x91, 0xbe, 0xfb, 0xb0, 0x19, 0x3d,
  0x0f, 0x10, 0x95, 0xbe, 0x1e, 0xd2, 0x61, 0x3e, 0x75, 0x90, 0x24, 0xbd,
  0x20, 0x41, 0x94, 0x3e, 0xd4, 0x16, 0x58, 0xbe, 0x50, 0x99, 0xc2, 0x3c,
  0xc9, 0x47, 0x62, 0x3e, 0x25, 0x56, 0x42, 0x3d, 0x06, 0x1b, 0xde, 0x3c,
  0x07, 0x7c, 0xff, 0xbc, 0x95, 0x7b, 0xd9, 0x3c, 0x28, 0xeb, 0x59, 0xbc,
  0x16, 0xbe, 0x86, 0xbe, 0xb0, 0x0a, 0x30, 0xbd, 0x15, 0xde, 0x01, 0x3d,
  0x48, 0x66, 0x67, 0x3c, 0x3f, 0x9a, 0x2d, 0x3e, 0x50, 0x63, 0x6b, 0x3d,
  0x39, 0x9f, 0x34, 0x3e, 0x16, 0x92, 0x89, 0x3e, 0x01, 0x86, 0xfa, 0x3c,
  0xa1, 0xb4, 0x87, 0xbe, 0x76, 0x81, 0xb5, 0x3e, 0x3c, 0x3a, 0xd9, 0x3c,
  0x1f, 0x61, 0x78, 0x3e, 0x3f, 0x6f, 0x92, 0xbe, 0x19, 0x31, 0x8a, 0x3e,
  0x15, 0x7c, 0xfe, 0x3c, 0x67, 0x0a, 0xc1, 0x3c, 0x06, 0xd6, 0x29, 0x3e,
  0xf5, 0xbf, 0x2e, 0x3e, 0xa4, 0x3b, 0x4e, 0xbd, 0x54, 0x07, 0x31, 0xbe,
  0xf9, 0x27, 0xac, 0xbd, 0x49, 0xba, 0x17, 0xbe, 0xc2, 0x80, 0x91, 0xbc,
  0xf6, 0xc9, 0xf2, 0x3d, 0xb9, 0x0a, 0x92, 0xbe, 0xa3, 0x40, 0x95, 0xbe,
  0xc8, 0x62, 0x84, 0x3e, 0x83, 0x3e, 0x98, 0x3e, 0x9f, 0xdb, 0x50, 0xbd,
  0x3f, 0xfa, 0x9c, 0xbe, 0x77, 0x26, 0x4c, 0xbe, 0x64, 0x9f, 0x9b, 0x3e,
  0x63, 0x64, 0x5a, 0xbe, 0xd6, 0x19, 0x2c, 0x3d, 0x81, 0x56, 0x9d, 0xbe,
  0x20, 0xbf, 0xb3, 0x3e, 0x04, 0x86, 0x5b, 0xbc, 0x82, 0x84, 0x76, 0x3e,
  0x8d, 0xef, 0x3e, 0xbb, 0x1e, 0x47, 0x80, 0x3e, 0xc8, 0x49, 0xe6, 0x3d,
  0xa4, 0x66, 0x8b, 0x3e, 0x6e, 0x67, 0x1d, 0xbe, 0x2e, 0x8d, 0x68, 0x3e,
  0x41, 0xc3, 0xea, 0xbd, 0xc3, 0x25, 0x65, 0xbe, 0x72, 0x6b, 0x75, 0xbe,
  0x93, 0x91, 0x91, 0x3e, 0x54, 0xd1, 0x41, 0xbe, 0x4f, 0x3d, 0x5c, 0xbc,
  0x1b, 0x1a, 0x1f, 0xbe, 0xa9, 0xb1, 0x0b, 0x3e, 0x68, 0xd8, 0xe4, 0xbd,
  0xfa, 0x88, 0xd8, 0x3d, 0x63, 0x41, 0x34, 0x3e, 0x85, 0xb7, 0xb2, 0xbd,
  0x65, 0xa5, 0x85, 0x3e, 0x69, 0x73, 0xaa, 0xbd, 0x8e, 0x6a, 0x70, 0xbe,
  0x8d, 0xc9, 0x20, 0xbe, 0xc2, 0xb7, 0x36, 0xbe, 0x5d, 0xca, 0x78, 0xbe,
  0x8c, 0xe7, 0x78, 0xbe, 0x63, 0x3e, 0x13, 0x3e, 0xca, 0x3f, 0x8b, 0xbd,
  0x48, 0x01, 0x1a, 0xbe, 0xea, 0xe1, 0x5a, 0x3e, 0x0c, 0x5e, 0x15, 0xbe,
  0x7e, 0x41, 0x58, 0xbe, 0xf5, 0xa6, 0x13, 0xbe, 0xc0, 0xff, 0xab, 0x3e,
  0x7d, 0xd5, 0x83, 0x3e, 0xa7, 0x63, 0x0e, 0xbe, 0x51, 0xe7, 0x6c, 0xbd,
  0xe6, 0xba, 0x36, 0x3e, 0x22, 0x99, 0x41, 0x3e, 0xcc, 0xa8, 0x21, 0xbe,
  0x84, 0xb7, 0x86, 0x3e, 0xa5, 0x5a, 0x91, 0x3e, 0x69, 0x07, 0x61, 0x3e,
  0xe0, 0x52, 0x65, 0xbc, 0x6e, 0xf7, 0xff, 0xff, 0x04, 0x00, 0x00, 0x00,
  0x00, 0x01, 0x00, 0x00, 0x06, 0xf7, 0x9b, 0xbd, 0xb5, 0xaf, 0xae, 0xbe,
  0x9c, 0x03, 0x65, 0xbe, 0xec, 0xdc, 0x55, 0x3d, 0x86, 0x95, 0x10, 0x3e,
  0xe1, 0xd6, 0x06, 0x3e, 0xd6, 0x5b, 0x0c, 0xbe, 0x4e, 0x9f, 0xd4, 0x3d,
  0xaf, 0xae, 0xb8, 0x3b, 0xd7, 0x54, 0x17, 0xbe, 0x63, 0x8b, 0x3f, 0x3e,
  0x15, 0x16, 0xdd, 0x3d, 0xcf, 0x99, 0x6a, 0xbe, 0x6b, 0x42, 0x3f, 0xbe,
  0x47, 0x96, 0x44, 0x3e, 0x32, 0x32, 0x33, 0xbe, 0xd4, 0x04, 0x68, 0x3e,
  0x12, 0x3b, 0x60, 0xbe, 0xd5, 0xdc, 0x86, 0xbe, 0x3b, 0x6b, 0x93, 0xbe,
  0x84, 0xd0, 0x64, 0x3e, 0x7c, 0x33, 0xb3, 0xbe, 0xa2, 0x92, 0xa5, 0xbe,
  0x95, 0xcf, 0xa2, 0xbe, 0x30, 0xc7, 0xc1, 0xbd, 0x02, 0xa6, 0x21, 0x3e,
  0xfe, 0xb8, 0x7b, 0x3e, 0x47, 0xe5, 0xb4, 0xbe, 0x32, 0x91, 0x0d, 0x3e,
  0x1c, 0x2d, 0x67, 0xbe, 0xb6, 0x82, 0x76, 0xbe, 0xcc, 0x1e, 0x9f, 0x3c,
  0x91, 0x9c, 0xc4, 0x3c, 0x05, 0x0d, 0x7f, 0xbe, 0xa3, 0x88, 0x2a, 0xbe,
  0x4e, 0x98, 0x92, 0xbe, 0xd0, 0x64, 0x80, 0xbd, 0x4d, 0x95, 0xa7, 0xbe,
  0x61, 0xe1, 0x19, 0x3e, 0x20, 0x71, 0x65, 0x3e, 0x89, 0xe8, 0xa4, 0xbe,
  0xaa, 0x31, 0x2a, 0xbe, 0x4a, 0xef, 0x86, 0xbe, 0xa1, 0x88, 0x1a, 0x3e,
  0x04, 0xa0, 0x56, 0xbe, 0x78, 0xc1, 0x59, 0x3d, 0x07, 0xcf, 0x9a, 0xbd,
  0x1f, 0xc1, 0x66, 0xbe, 0x57, 0x88, 0x81, 0xbe, 0x77, 0x01, 0x85, 0x3e,
  0xe9, 0xed, 0x83, 0x3d, 0x01, 0x52, 0x40, 0xbe, 0xbe, 0xe9, 0xa6, 0xbe,
  0xa6, 0x86, 0x4d, 0xbe, 0x76, 0x80, 0x54, 0x3e, 0xba, 0xcd, 0x85, 0x3d,
  0xa5, 0x67, 0x7a, 0x3e, 0x9a, 0xa0, 0x98, 0x3e, 0xbe, 0x0d, 0x96, 0xbe,
  0xfc, 0x2e, 0x1a, 0x3e, 0x3b, 0xe2, 0x3b, 0xbe, 0x65, 0xd5, 0x48, 0x3e,
  0xf4, 0x36, 0x80, 0x3e, 0xbb, 0xd3, 0xb1, 0xbe, 0x7a, 0xf8, 0xff, 0xff,
  0x04, 0x00, 0x00, 0x00, 0x00, 0x01, 0x00, 0x00, 0xed, 0x12, 0x15, 0xbe,
  0x4d, 0x56, 0x85, 0xbe, 0xba, 0x5c, 0xc2, 0xbd, 0x8c, 0x71, 0x2f, 0x3e,
  0xab, 0x89, 0x29, 0xbe, 0x79, 0xfa, 0xf7, 0x3d, 0x18, 0x29, 0x16, 0x3e,
  0xf7, 0xc1, 0x81, 0xbe, 0x50, 0x55, 0x3a, 0xbd, 0xa0, 0xe4, 0x06, 0x3e,
  0xe6, 0xc6, 0x92, 0xbe, 0x1c, 0xd0, 0xde, 0xbd, 0x2c, 0x7b, 0xb2, 0x3e,
  0xd0, 0x26, 0x21, 0x3e, 0xef, 0x5d, 0x55, 0xbe, 0x6a, 0x1e, 0x83, 0x3e,
  0xe7, 0xc1, 0x5a, 0xbe, 0x6d, 0xf8, 0x42, 0x3e, 0x9f, 0x19, 0x16, 0x3e,
  0x83, 0x62, 0x95, 0xbe, 0x22, 0x58, 0x28, 0xbe, 0x96, 0x2e, 0x46, 0xbe,
  0xbf, 0xa8, 0x77, 0xbe, 0xf6, 0x40, 0x4a, 0xbe, 0xd1, 0x0f, 0x81, 0xbe,
  0x8b, 0x35, 0x91, 0xbd, 0x4b, 0x64, 0x2b, 0x3e, 0xc1, 0xd2, 0xd3, 0x3e,
  0x7f, 0x0d, 0xcf, 0x3e, 0x22, 0xba, 0x1b, 0x3e, 0x41, 0xf0, 0x4d, 0xbe,
  0xcd, 0x62, 0x60, 0xbe, 0x46, 0xd6, 0x10, 0x3f, 0x6a, 0x37, 0xf3, 0xbe,
  0x2c, 0xf3, 0x40, 0x3e, 0x0b, 0x21, 0x13, 0x3e, 0xf9, 0x20, 0x5e, 0x3e,
  0x38, 0x52, 0x86, 0x3e, 0xfa, 0xdd, 0xee, 0xbd, 0x47, 0x81, 0xd8, 0xbe,
  0x09, 0x60, 0x7e, 0x3e, 0xb3, 0x1c, 0x3a, 0xbe, 0x32, 0x1d, 0x09, 0x3e,
  0xa4, 0x49, 0x48, 0xbe, 0x69, 0xf7, 0x34, 0x3e, 0x24, 0x54, 0x40, 0xbe,
  0x4f, 0x91, 0x35, 0xbe, 0xbd, 0x15, 0x91, 0xbe, 0x5c, 0x5e, 0x55, 0xbe,
  0xff, 0x31, 0x62, 0x3d, 0xad, 0x64, 0x55, 0x3e, 0xe1, 0x7e, 0x3e, 0x3e,
  0x7c, 0x2d, 0x99, 0x3e, 0x4c, 0xd7, 0x27, 0x3e, 0xc4, 0xc0, 0x86, 0x3e,
  0x7e, 0x2c, 0x6a, 0x3e, 0x8f, 0x9f, 0x6c, 0x3e, 0x71, 0x33, 0x57, 0xbe,
  0x5d, 0xe6, 0x5f, 0x3c, 0x09, 0x66, 0x83, 0xbe, 0xf8, 0x48, 0x32, 0x3e,
  0xe9, 0x9e, 0xe3, 0x3d, 0x3e, 0x9e, 0x34, 0x3e, 0x0b, 0x4c, 0x65, 0xbe,
  0x86, 0xf9, 0xff, 0xff, 0x04, 0x00, 0x00, 0x00, 0x00, 0x03, 0x00, 0x00,
  0xd4, 0x96, 0x87, 0x3e, 0xa9, 0x72, 0x93, 0xbd, 0x45, 0xd5, 0xb0, 0xbe,
  0xf4, 0x05, 0x58, 0x3e, 0xb0, 0x04, 0x81, 0x3d, 0x43, 0x9e, 0xbe, 0xbd,
  0x2d, 0x1b, 0x11, 0x3e, 0x7a, 0x47, 0x41, 0xbe, 0xb5, 0x46, 0x9d, 0xbe,
  0x67, 0x8e, 0xfd, 0xbd, 0x63, 0x12, 0x80, 0x3d, 0x12, 0xbd, 0x85, 0x3e,
  0xab, 0xb2, 0x99, 0x3e, 0xcf, 0x58, 0xae, 0x3d, 0xfc, 0x09, 0x60, 0xbe,
  0x56, 0x9c, 0x3c, 0xbe, 0xa4, 0xb9, 0x84, 0x3d, 0xd1, 0x2e, 0x11, 0xbe,
  0x9a, 0xdd, 0x93, 0x3d, 0x8a, 0xd8, 0xa0, 0x3d, 0x87, 0x72, 0x02, 0x3d,
  0x92, 0xe9, 0x84, 0xbc, 0x54, 0x85, 0x4e, 0x3e, 0xaa, 0xf9, 0x8c, 0xbe,
  0x16, 0x27, 0x5b, 0xbc, 0x89, 0x9c, 0xa6, 0xbd, 0x80, 0x1b, 0xcb, 0xbd,
  0x9c, 0x5e, 0x46, 0xbe, 0xb1, 0xea, 0x0a, 0xbd, 0x25, 0xd6, 0xa2, 0x3e,
  0x8f, 0x6f, 0xb7, 0xbd, 0xe2, 0xf2, 0x42, 0xbe, 0xe5, 0xe7, 0x2d, 0x3d,
  0x3f, 0x09, 0x86, 0xbe, 0xc1, 0x75, 0x09, 0x3e, 0xa8, 0x53, 0x37, 0xbd,
  0xbb, 0x56, 0x32, 0xbe, 0x76, 0x5e, 0x82, 0x3e, 0x38, 0xf3, 0x32, 0x3e,
  0x1e, 0x4a, 0x91, 0xbe, 0xdd, 0x5f, 0x8d, 0x3c, 0x60, 0x00, 0x3c, 0x3e,
  0xc4, 0x53, 0x5c, 0x3e, 0xe1, 0x61, 0x2f, 0x3e, 0x93, 0xdf, 0x1c, 0xbe,
  0x59, 0x15, 0xdf, 0xbd, 0x19, 0xe1, 0x0d, 0x3e, 0x9e, 0x2f, 0x40, 0x3e,
  0x18, 0x3c, 0x03, 0x3c, 0x9a, 0xa9, 0xd5, 0xbd, 0x47, 0x93, 0x1e, 0xbe,
  0x6e, 0x0d, 0xee, 0xbc, 0xb9, 0x3b, 0x99, 0xbc, 0x6b, 0xbc, 0x8c, 0x3e,
  0xeb, 0xc1, 0x76, 0xbd, 0x2e, 0xaf, 0xd1, 0xbd, 0xd6, 0x82, 0x50, 0x3e,
  0x15, 0x62, 0x26, 0x3e, 0xbb, 0xef, 0x1f, 0x3e, 0xcb, 0x9f, 0xa9, 0xbd,
  0x8e, 0xdd, 0x9b, 0xbd, 0xfd, 0x06, 0x7a, 0x3d, 0x5f, 0x92, 0x14, 0xbe,
  0xc0, 0xc0, 0x06, 0xbd, 0xa9, 0x8e, 0xa2, 0x3e, 0xd3, 0xb2, 0x5d, 0xbe,
  0xa9, 0xff, 0x59, 0xbd, 0xf5, 0xa4, 0xe6, 0xbd, 0xa8, 0x4c, 0x57, 0x3d,
  0x86, 0x1b, 0x35, 0x3e, 0x93, 0x7b, 0x46, 0x3e, 0xd5, 0xd8, 0xd5, 0xbd,
  0xc7, 0x6b, 0xc7, 0x3d, 0x6e, 0xd1, 0x96, 0x3e, 0xe1, 0xd6, 0x21, 0xbe,
  0x01, 0x1e, 0x83, 0xbe, 0xeb, 0xdf, 0xd0, 0x3d, 0x09, 0x7e, 0xd0, 0xbd,
  0x7f, 0x1c, 0x9f, 0xbc, 0xdd, 0x47, 0xbd, 0x3d, 0x6b, 0xbe, 0x9f, 0x3e,
  0x7f, 0xb9, 0x76, 0xbe, 0x52, 0xf2, 0xd9, 0x3e, 0x7d, 0xdf, 0x78, 0x3e,
  0xaf, 0xed, 0xdd, 0x3d, 0xe4, 0xd1, 0x8e, 0x3e, 0x21, 0x32, 0xda, 0x3e,
  0x32, 0xab, 0xa9, 0xbc, 0x4d, 0xb0, 0x31, 0x3d, 0x6d, 0x38, 0xd4, 0xbd,
  0x4f, 0x23, 0x83, 0x3e, 0x81, 0x6c, 0x63, 0x3e, 0xcc, 0xb8, 0x05, 0xbe,
  0x35, 0x9d, 0x5e, 0x3e, 0x1c, 0x0a, 0x44, 0x3e, 0x50, 0x7d, 0x19, 0xbd,
  0xd7, 0xc7, 0x11, 0x3e, 0x24, 0xc6, 0x9f, 0x3e, 0xe4, 0xb9, 0xe5, 0x3e,
  0x7f, 0xdc, 0xd1, 0xbc, 0xca, 0x85, 0xe7, 0x3e, 0x67, 0xff, 0x06, 0xbe,
  0x81, 0xc2, 0x50, 0x3e, 0x34, 0x87, 0x94, 0xbd, 0xee, 0xa8, 0xb6, 0x3e,
  0x8d, 0x61, 0x4f, 0xbe, 0x79, 0x90, 0xc5, 0x3c, 0x2a, 0x6e, 0x95, 0x3e,
  0x0f, 0x51, 0x28, 0xbe, 0xa3, 0xa1, 0x16, 0x3e, 0xe0, 0x1b, 0x53, 0x3e,
  0x8d, 0x1e, 0x44, 0xbe, 0x08, 0x1d, 0x61, 0xbd, 0xa7, 0xaf, 0xda, 0x3e,
  0xbc, 0x0c, 0x42, 0x3d, 0x87, 0x70, 0x6d, 0xbe, 0x90, 0x00, 0x16, 0xbe,
  0xbf, 0x64, 0x6d, 0x3e, 0xbb, 0x54, 0xa7, 0x3e, 0x04, 0x03, 0x8c, 0xb9,
  0xc4, 0x3a, 0xe8, 0x3d, 0x8a, 0xdf, 0x4c, 0xbe, 0x9e, 0x7d, 0x85, 0xbc,
  0xb3, 0xe2, 0x92, 0xbd, 0x66, 0x7d, 0x7c, 0x3e, 0xdf, 0xe5, 0xf4, 0x3d,
  0xd2, 0xd1, 0x09, 0x3e, 0x93, 0xc6, 0x0f, 0x3d, 0x98, 0x38, 0xc8, 0xbd,
  0x02, 0x9e, 0xaa, 0x3e, 0x5a, 0xe5, 0x92, 0x3e, 0xef, 0xa6, 0xda, 0xbc,
  0x12, 0x26, 0xa9, 0xbd, 0x52, 0x4c, 0x44, 0x3d, 0xe7, 0x3f, 0x8f, 0x3e,
  0x5d, 0xb9, 0x9a, 0x3e, 0xcc, 0x07, 0xe9, 0xbc, 0xac, 0x1f, 0x0d, 0xbe,
  0x5c, 0xad, 0x45, 0x3d, 0x11, 0x6b, 0xb0, 0x3e, 0xf3, 0x30, 0x8c, 0xbe,
  0x75, 0x1e, 0x89, 0xbe, 0xfe, 0xa8, 0x68, 0xbe, 0xcd, 0x86, 0xae, 0xbd,
  0xe6, 0xb8, 0xb3, 0x3e, 0xca, 0x65, 0x19, 0x3e, 0x98, 0x4f, 0xb0, 0xbc,
  0x88, 0x52, 0x4f, 0x3d, 0x54, 0x46, 0xfa, 0xbd, 0x82, 0xa8, 0x7c, 0xbe,
  0x52, 0x55, 0x21, 0x3e, 0xcf, 0x29, 0x5f, 0xbd, 0xb4, 0x9c, 0xa3, 0x3e,
  0x85, 0x99, 0x21, 0x3e, 0x57, 0xba, 0x0f, 0xbd, 0x55, 0xf1, 0xb7, 0x3e,
  0x57, 0x96, 0xd1, 0x3c, 0x4e, 0xec, 0x77, 0x3d, 0xfc, 0x23, 0x1c, 0xbb,
  0x14, 0x3f, 0x49, 0xbe, 0x91, 0x5e, 0xc5, 0xbd, 0x8f, 0x42, 0x3d, 0x3e,
  0x03, 0x23, 0x79, 0x3c, 0x3a, 0xea, 0x38, 0x3c, 0xee, 0x82, 0x54, 0x3e,
  0x93, 0xc2, 0xa5, 0x3d, 0xe6, 0x2e, 0x92, 0xbd, 0xf4, 0x02, 0x66, 0xbd,
  0x77, 0x70, 0x02, 0xbd, 0xba, 0x34, 0x50, 0x3c, 0x37, 0x16, 0x5c, 0x3e,
  0x62, 0x84, 0x06, 0x3c, 0xf6, 0x30, 0x28, 0xbe, 0x60, 0xaa, 0x31, 0x3e,
  0x4f, 0x49, 0xc4, 0xbd, 0x78, 0x44, 0x48, 0xbe, 0xa9, 0x66, 0x47, 0xbd,
  0x28, 0x37, 0x87, 0x3e, 0x05, 0x4e, 0xeb, 0x3d, 0x3f, 0xe4, 0x14, 0xbd,
  0x21, 0x57, 0x4e, 0xbd, 0x08, 0xf1, 0xea, 0x3d, 0x81, 0x96, 0x99, 0x3e,
  0xe1, 0xf8, 0xf6, 0x3d, 0xc8, 0x60, 0x04, 0x3c, 0xa4, 0x2a, 0x2b, 0xbd,
  0xca, 0x4e, 0xb8, 0xbd, 0x73, 0x2c, 0x12, 0xbe, 0xfe, 0x85, 0x5e, 0xbd,
  0x44, 0x93, 0x07, 0x3e, 0x9a, 0x25, 0x39, 0xbe, 0xaf, 0x4e, 0x3a, 0x3e,
  0x92, 0xfc, 0xff, 0xff, 0x04, 0x00, 0x00, 0x00, 0x04, 0x00, 0x00, 0x00,
  0xda, 0x0d, 0x07, 0xbe, 0xa2, 0xfc, 0xff, 0xff, 0x04, 0x00, 0x00, 0x00,
  0x00, 0x01, 0x00, 0x00, 0x3c, 0x8b, 0xd3, 0xbc, 0xb5, 0x3e, 0x55, 0xbd,
  0x99, 0xc4, 0x8a, 0x3d, 0xd1, 0x89, 0x9d, 0xbd, 0x9e, 0x6d, 0x4a, 0xbe,
  0xc1, 0x5a, 0x12, 0xbe, 0xb5, 0x5a, 0x90, 0xbd, 0x37, 0xa4, 0x14, 0xbe,
  0x1e, 0x88, 0x1a, 0xbc, 0xfb, 0x5c, 0xc2, 0xbd, 0x14, 0x2a, 0x99, 0x3c,
  0x3a, 0xf0, 0xe1, 0xbd, 0x7f, 0x98, 0xa4, 0x3a, 0x21, 0x4c, 0x5a, 0x3d,
  0x4e, 0x94, 0x00, 0x3d, 0x4a, 0x8d, 0x69, 0x3d, 0xa4, 0xed, 0xfa, 0xbd,
  0xbc, 0x54, 0xb8, 0x3c, 0x4b, 0x94, 0x07, 0xbe, 0x60, 0x1e, 0x3c, 0xbd,
  0xaa, 0x40, 0xd0, 0x3c, 0x6c, 0x36, 0x5a, 0xbd, 0x0a, 0x5d, 0xc0, 0xbd,
  0x96, 0x68, 0x6e, 0xbd, 0x0e, 0xd6, 0x7a, 0xbd, 0x65, 0x38, 0x26, 0xbe,
  0x99, 0x5b, 0x2d, 0x3d, 0x07, 0x76, 0x2c, 0xbd, 0xcc, 0xc0, 0x3e, 0xbe,
  0x2f, 0xbc, 0xcf, 0x3c, 0x5f, 0x74, 0xa3, 0xbd, 0x52, 0x9f, 0x01, 0xbd,
  0x03, 0x7b, 0xde, 0xbc, 0xd3, 0x64, 0x86, 0x3d, 0xb6, 0x7c, 0x37, 0xbe,
  0xdc, 0x8a, 0x21, 0xbd, 0x73, 0xc3, 0x2b, 0xbd, 0x7c, 0x0b, 0x20, 0xbe,
  0x85, 0xf3, 0x58, 0xbe, 0x1b, 0x69, 0x0d, 0x3d, 0xe0, 0xff, 0x32, 0xbd,
  0x34, 0x7c, 0x14, 0x3d, 0x69, 0x32, 0x48, 0x3d, 0xb7, 0x49, 0x06, 0xbe,
  0x47, 0xde, 0x16, 0x3d, 0xdf, 0x75, 0xa4, 0xbd, 0x0a, 0xa6, 0xb0, 0xbd,
  0xf3, 0x6d, 0x20, 0xbe, 0xdb, 0xe8, 0x6d, 0x3d, 0x7b, 0x6a, 0x25, 0x3d,
  0x70, 0xed, 0xbc, 0xbd, 0x7f, 0xee, 0x41, 0x3d, 0xe8, 0xd8, 0x14, 0xbd,
  0x7b, 0x10, 0xd8, 0xbd, 0x49, 0x5c, 0xe2, 0x3c, 0x8a, 0x2d, 0xcd, 0xbd,
  0xe9, 0x7a, 0x04, 0xbe, 0x88, 0x67, 0x28, 0x3d, 0xbb, 0x47, 0x96, 0xbd,
  0x8a, 0xf7, 0x1b, 0xbe, 0xe8, 0xc7, 0xc2, 0xbd, 0x9e, 0x57, 0xd6, 0x3c,
  0x44, 0xaa, 0x08, 0x3d, 0xfb, 0xfc, 0x61, 0xbd, 0xae, 0xfd, 0xff, 0xff,
  0x04, 0x00, 0x00, 0x00, 0x0c, 0x00, 0x00, 0x00, 0xa9, 0x1e, 0xbe, 0xbc,
  0x88, 0x32, 0x4f, 0xbc, 0x55, 0x85, 0x25, 0xbd, 0xc6, 0xfd, 0xff, 0xff,
  0x04, 0x00, 0x00, 0x00, 0x00, 0x01, 0x00, 0x00, 0x6e, 0xfd, 0x1d, 0xbd,
  0x45, 0xef, 0x4b, 0xbc, 0xdf, 0x59, 0x0f, 0xbc, 0x5a, 0x8b, 0x65, 0x3d,
  0x31, 0x96, 0xff, 0xbc, 0x65, 0xa1, 0x82, 0xbd, 0x42, 0x3a, 0xb7, 0xbd,
  0x4c, 0x65, 0x03, 0xbd, 0x33, 0x76, 0x95, 0x3b, 0x0b, 0xc6, 0xa6, 0x3d,
  0x73, 0x65, 0x75, 0xbd, 0x5f, 0xbb, 0x85, 0xbd, 0x6d, 0x00, 0xa3, 0xbc,
  0xf8, 0xbc, 0x75, 0x3d, 0xd1, 0x97, 0x10, 0xbd, 0x22, 0x69, 0xe9, 0x3c,
  0x85, 0x5e, 0x49, 0xbc, 0xaf, 0xd4, 0x6f, 0x3d, 0xbc, 0xb1, 0x64, 0x3d,
  0x8d, 0xac, 0xe2, 0xbc, 0x6f, 0x36, 0x90, 0x3b, 0x8f, 0x9d, 0xee, 0xbc,
  0x93, 0x2f, 0x35, 0xbd, 0x80, 0x71, 0x1a, 0xbc, 0xaf, 0x57, 0x6a, 0xbd,
  0xeb, 0x15, 0xf1, 0xbc, 0xc0, 0xd5, 0x85, 0x3d, 0x2b, 0xe5, 0xab, 0xbd,
  0x71, 0x82, 0xb7, 0xbd, 0xcc, 0x10, 0x84, 0xbd, 0xa9, 0x6a, 0x21, 0xbd,
  0xa6, 0x21, 0xb9, 0xbc, 0xb4, 0xf1, 0xff, 0xbd, 0xb1, 0x1e, 0x1e, 0xbe,
  0xe3, 0x88, 0x5c, 0x3d, 0x92, 0x9b, 0x93, 0x3d, 0xff, 0xf7, 0x2b, 0x3d,
  0xc1, 0xd6, 0x91, 0xbd, 0x68, 0x16, 0x32, 0xbc, 0x22, 0x80, 0x25, 0xbe,
  0x15, 0xfb, 0x31, 0xbd, 0x69, 0x9f, 0x10, 0xbe, 0xb1, 0xcb, 0x26, 0xbe,
  0x61, 0xf0, 0x23, 0xbd, 0x01, 0x94, 0x7d, 0x3d, 0x6b, 0x24, 0x78, 0xbc,
  0x29, 0x2b, 0x26, 0xbd, 0x78, 0x0f, 0x74, 0xbd, 0xc0, 0x20, 0xb5, 0xbc,
  0x1e, 0x24, 0xb4, 0xbd, 0x71, 0x22, 0x59, 0x3d, 0x60, 0x89, 0x84, 0x3d,
  0x66, 0x1d, 0x7b, 0xbd, 0x17, 0x29, 0x73, 0x3d, 0xbc, 0xd5, 0x2c, 0x3d,
  0xea, 0x4f, 0x2d, 0xbd, 0xcc, 0x94, 0x3f, 0x3d, 0x92, 0x9d, 0xc7, 0xbd,
  0x55, 0x98, 0x99, 0x39, 0xb1, 0xd9, 0x95, 0xbc, 0x03, 0x93, 0x84, 0x3d,
  0x65, 0x25, 0xdc, 0xbd, 0x7f, 0x28, 0xf9, 0xbc, 0x68, 0x12, 0xe9, 0xbd,
  0xc0, 0xf8, 0xff, 0xff, 0xc4, 0xf8, 0xff, 0xff, 0x0f, 0x00, 0x00, 0x00,
  0x4d, 0x4c, 0x49, 0x52, 0x20, 0x43, 0x6f, 0x6e, 0x76, 0x65, 0x72, 0x74,
  0x65, 0x64, 0x2e, 0x00, 0x01, 0x00, 0x00, 0x00, 0x14, 0x00, 0x00, 0x00,
  0x00, 0x00, 0x0e, 0x00, 0x18, 0x00, 0x14, 0x00, 0x10, 0x00, 0x0c, 0x00,
  0x08, 0x00, 0x04, 0x00, 0x0e, 0x00, 0x00, 0x00, 0x14, 0x00, 0x00, 0x00,
  0x1c, 0x00, 0x00, 0x00, 0x88, 0x01, 0x00, 0x00, 0x8c, 0x01, 0x00, 0x00,
  0x90, 0x01, 0x00, 0x00, 0x04, 0x00, 0x00, 0x00, 0x6d, 0x61, 0x69, 0x6e,
  0x00, 0x00, 0x00, 0x00, 0x06, 0x00, 0x00, 0x00, 0x30, 0x01, 0x00, 0x00,
  0xec, 0x00, 0x00, 0x00, 0xb0, 0x00, 0x00, 0x00, 0x68, 0x00, 0x00, 0x00,
  0x34, 0x00, 0x00, 0x00, 0x10, 0x00, 0x00, 0x00, 0x00, 0x00, 0x0a, 0x00,
  0x10, 0x00, 0x0c, 0x00, 0x08, 0x00, 0x04, 0x00, 0x0a, 0x00, 0x00, 0x00,
  0x0c, 0x00, 0x00, 0x00, 0x10, 0x00, 0x00, 0x00, 0x02, 0x00, 0x00, 0x00,
  0x01, 0x00, 0x00, 0x00, 0x0e, 0x00, 0x00, 0x00, 0x01, 0x00, 0x00, 0x00,
  0x0d, 0x00, 0x00, 0x00, 0x22, 0xff, 0xff, 0xff, 0x10, 0x00, 0x00, 0x00,
  0x00, 0x00, 0x00, 0x08, 0x0c, 0x00, 0x00, 0x00, 0x10, 0x00, 0x00, 0x00,
  0x74, 0xf9, 0xff, 0xff, 0x01, 0x00, 0x00, 0x00, 0x0d, 0x00, 0x00, 0x00,
  0x03, 0x00, 0x00, 0x00, 0x0c, 0x00, 0x00, 0x00, 0x08, 0x00, 0x00, 0x00,
  0x02, 0x00, 0x00, 0x00, 0x52, 0xff, 0xff, 0xff, 0x10, 0x00, 0x00, 0x00,
  0x00, 0x00, 0x00, 0x08, 0x10, 0x00, 0x00, 0x00, 0x14, 0x00, 0x00, 0x00,
  0x42, 0xff, 0xff, 0xff, 0x00, 0x00, 0x00, 0x01, 0x01, 0x00, 0x00, 0x00,
  0x0c, 0x00, 0x00, 0x00, 0x03, 0x00, 0x00, 0x00, 0x0b, 0x00, 0x00, 0x00,
  0x07, 0x00, 0x00, 0x00, 0x03, 0x00, 0x00, 0x00, 0x00, 0x00, 0x0e, 0x00,
  0x1a, 0x00, 0x14, 0x00, 0x10, 0x00, 0x0c, 0x00, 0x0b, 0x00, 0x04, 0x00,
  0x0e, 0x00, 0x00, 0x00, 0x1c, 0x00, 0x00, 0x00, 0x00, 0x00, 0x00, 0x4b,
  0x1c, 0x00, 0x00, 0x00, 0x20, 0x00, 0x00, 0x00, 0x01, 0x00, 0x00, 0x00,
  0x00, 0x00, 0x06, 0x00, 0x08, 0x00, 0x04, 0x00, 0x06, 0x00, 0x00, 0x00,
  0x9a, 0x99, 0x19, 0x3f, 0x01, 0x00, 0x00, 0x00, 0x0b, 0x00, 0x00, 0x00,
  0x01, 0x00, 0x00, 0x00, 0x0a, 0x00, 0x00, 0x00, 0xce, 0xff, 0xff, 0xff,
  0x10, 0x00, 0x00, 0x00, 0x00, 0x00, 0x00, 0x08, 0x0c, 0x00, 0x00, 0x00,
  0x10, 0x00, 0x00, 0x00, 0x20, 0xfa, 0xff, 0xff, 0x01, 0x00, 0x00, 0x00,
  0x0a, 0x00, 0x00, 0x00, 0x03, 0x00, 0x00, 0x00, 0x09, 0x00, 0x00, 0x00,
  0x06, 0x00, 0x00, 0x00, 0x04, 0x00, 0x00, 0x00, 0x00, 0x00, 0x0e, 0x00,
  0x16, 0x00, 0x00, 0x00, 0x10, 0x00, 0x0c, 0x00, 0x0b, 0x00, 0x04, 0x00,
  0x0e, 0x00, 0x00, 0x00, 0x18, 0x00, 0x00, 0x00, 0x00, 0x00, 0x00, 0x08,
  0x18, 0x00, 0x00, 0x00, 0x1c, 0x00, 0x00, 0x00, 0x00, 0x00, 0x06, 0x00,
  0x08, 0x00, 0x07, 0x00, 0x06, 0x00, 0x00, 0x00, 0x00, 0x00, 0x00, 0x01,
  0x01, 0x00, 0x00, 0x00, 0x09, 0x00, 0x00, 0x00, 0x03, 0x00, 0x00, 0x00,
  0x00, 0x00, 0x00, 0x00, 0x05, 0x00, 0x00, 0x00, 0x01, 0x00, 0x00, 0x00,
  0x01, 0x00, 0x00, 0x00, 0x0e, 0x00, 0x00, 0x00, 0x01, 0x00, 0x00, 0x00,
  0x00, 0x00, 0x00, 0x00, 0x0f, 0x00, 0x00, 0x00, 0x40, 0x05, 0x00, 0x00,
  0xdc, 0x04, 0x00, 0x00, 0x78, 0x04, 0x00, 0x00, 0x24, 0x04, 0x00, 0x00,
  0xd0, 0x03, 0x00, 0x00, 0x8c, 0x03, 0x00, 0x00, 0x44, 0x03, 0x00, 0x00,
  0xfc, 0x02, 0x00, 0x00, 0xb4, 0x02, 0x00, 0x00, 0x30, 0x02, 0x00, 0x00,
  0xbc, 0x01, 0x00, 0x00, 0x5c, 0x01, 0x00, 0x00, 0xd0, 0x00, 0x00, 0x00,
  0x5c, 0x00, 0x00, 0x00, 0x04, 0x00, 0x00, 0x00, 0x10, 0xfb, 0xff, 0xff,
  0x14, 0x00, 0x00, 0x00, 0x1c, 0x00, 0x00, 0x00, 0x1c, 0x00, 0x00, 0x00,
  0x0f, 0x00, 0x00, 0x00, 0x34, 0x00, 0x00, 0x00, 0x02, 0x00, 0x00, 0x00,
  0xff, 0xff, 0xff, 0xff, 0x03, 0x00, 0x00, 0x00, 0xfc, 0xfa, 0xff, 0xff,
  0x19, 0x00, 0x00, 0x00, 0x53, 0x74, 0x61, 0x74, 0x65, 0x66, 0x75, 0x6c,
  0x50, 0x61, 0x72, 0x74, 0x69, 0x74, 0x69, 0x6f, 0x6e, 0x65, 0x64, 0x43,
  0x61, 0x6c, 0x6c, 0x3a, 0x30, 0x00, 0x00, 0x00, 0x02, 0x00, 0x00, 0x00,
  0x01, 0x00, 0x00, 0x00, 0x03, 0x00, 0x00, 0x00, 0x64, 0xfb, 0xff, 0xff,
  0x14, 0x00, 0x00, 0x00, 0x1c, 0x00, 0x00, 0x00, 0x1c, 0x00, 0x00, 0x00,
  0x0e, 0x00, 0x00, 0x00, 0x50, 0x00, 0x00, 0x00, 0x02, 0x00, 0x00, 0x00,
  0xff, 0xff, 0xff, 0xff, 0x03, 0x00, 0x00, 0x00, 0x50, 0xfb, 0xff, 0xff,
  0x34, 0x00, 0x00, 0x00, 0x73, 0x65, 0x71, 0x75, 0x65, 0x6e, 0x74, 0x69,
  0x61, 0x6c, 0x2f, 0x64, 0x65, 0x6e, 0x73, 0x65, 0x5f, 0x33, 0x2f, 0x4d,
  0x61, 0x74, 0x4d, 0x75, 0x6c, 0x3b, 0x73, 0x65, 0x71, 0x75, 0x65, 0x6e,
  0x74, 0x69, 0x61, 0x6c, 0x2f, 0x64, 0x65, 0x6e, 0x73, 0x65, 0x5f, 0x33,
  0x2f, 0x42, 0x69, 0x61, 0x73, 0x41, 0x64, 0x64, 0x00, 0x00, 0x00, 0x00,
  0x02, 0x00, 0x00, 0x00, 0x01, 0x00, 0x00, 0x00, 0x03, 0x00, 0x00, 0x00,
  0xd4, 0xfb, 0xff, 0xff, 0x14, 0x00, 0x00, 0x00, 0x1c, 0x00, 0x00, 0x00,
  0x1c, 0x00, 0x00, 0x00, 0x0d, 0x00, 0x00, 0x00, 0x68, 0x00, 0x00, 0x00,
  0x02, 0x00, 0x00, 0x00, 0xff, 0xff, 0xff, 0xff, 0x40, 0x00, 0x00, 0x00,
  0xc0, 0xfb, 0xff, 0xff, 0x4c, 0x00, 0x00, 0x00, 0x73, 0x65, 0x71, 0x75,
  0x65, 0x6e, 0x74, 0x69, 0x61, 0x6c, 0x2f, 0x64, 0x65, 0x6e, 0x73, 0x65,
  0x5f, 0x32, 0x2f, 0x4d, 0x61, 0x74, 0x4d, 0x75, 0x6c, 0x3b, 0x73, 0x65,
  0x71, 0x75, 0x65, 0x6e, 0x74, 0x69, 0x61, 0x6c, 0x2f, 0x72, 0x65, 0x5f,
  0x6c, 0x75, 0x5f, 0x31, 0x2f, 0x52, 0x65, 0x6c, 0x75, 0x3b, 0x73, 0x65,
  0x71, 0x75, 0x65, 0x6e, 0x74, 0x69, 0x61, 0x6c, 0x2f, 0x64, 0x65, 0x6e,
  0x73, 0x65, 0x5f, 0x32, 0x2f, 0x42, 0x69, 0x61, 0x73, 0x41, 0x64, 0x64,
  0x00, 0x00, 0x00, 0x00, 0x02, 0x00, 0x00, 0x00, 0x01, 0x00, 0x00, 0x00,
  0x40, 0x00, 0x00, 0x00, 0x5c, 0xfc, 0xff, 0xff, 0x14, 0x00, 0x00, 0x00,
  0x1c, 0x00, 0x00, 0x00, 0x1c, 0x00, 0x00, 0x00, 0x0c, 0x00, 0x00, 0x00,
  0x3c, 0x00, 0x00, 0x00, 0x02, 0x00, 0x00, 0x00, 0xff, 0xff, 0xff, 0xff,
  0x01, 0x00, 0x00, 0x00, 0x48, 0xfc, 0xff, 0xff, 0x20, 0x00, 0x00, 0x00,
  0x73, 0x65, 0x71, 0x75, 0x65, 0x6e, 0x74, 0x69, 0x61, 0x6c, 0x2f, 0x6c,
  0x65, 0x61, 0x6b, 0x79, 0x5f, 0x72, 0x65, 0x5f, 0x6c, 0x75, 0x2f, 0x4c,
  0x65, 0x61, 0x6b, 0x79, 0x52, 0x65, 0x6c, 0x75, 0x00, 0x00, 0x00, 0x00,
  0x02, 0x00, 0x00, 0x00, 0x01, 0x00, 0x00, 0x00, 0x01, 0x00, 0x00, 0x00,
  0xb8, 0xfc, 0xff, 0xff, 0x14, 0x00, 0x00, 0x00, 0x1c, 0x00, 0x00, 0x00,
  0x1c, 0x00, 0x00, 0x00, 0x0b, 0x00, 0x00, 0x00, 0x50, 0x00, 0x00, 0x00,
  0x02, 0x00, 0x00, 0x00, 0xff, 0xff, 0xff, 0xff, 0x01, 0x00, 0x00, 0x00,
  0xa4, 0xfc, 0xff, 0xff, 0x34, 0x00, 0x00, 0x00, 0x73, 0x65, 0x71, 0x75,
  0x65, 0x6e, 0x74, 0x69, 0x61, 0x6c, 0x2f, 0x64, 0x65, 0x6e, 0x73, 0x65,
  0x5f, 0x31, 0x2f, 0x4d, 0x61, 0x74, 0x4d, 0x75, 0x6c, 0x3b, 0x73, 0x65,
  0x71, 0x75, 0x65, 0x6e, 0x74, 0x69, 0x61, 0x6c, 0x2f, 0x64, 0x65, 0x6e,
  0x73, 0x65, 0x5f, 0x31, 0x2f, 0x42, 0x69, 0x61, 0x73, 0x41, 0x64, 0x64,
  0x00, 0x00, 0x00, 0x00, 0x02, 0x00, 0x00, 0x00, 0x01, 0x00, 0x00, 0x00,
  0x01, 0x00, 0x00, 0x00, 0x28, 0xfd, 0xff, 0xff, 0x14, 0x00, 0x00, 0x00,
  0x1c, 0x00, 0x00, 0x00, 0x1c, 0x00, 0x00, 0x00, 0x0a, 0x00, 0x00, 0x00,
  0x60, 0x00, 0x00, 0x00, 0x02, 0x00, 0x00, 0x00, 0xff, 0xff, 0xff, 0xff,
  0x40, 0x00, 0x00, 0x00, 0x14, 0xfd, 0xff, 0xff, 0x46, 0x00, 0x00, 0x00,
  0x73, 0x65, 0x71, 0x75, 0x65, 0x6e, 0x74, 0x69, 0x61, 0x6c, 0x2f, 0x64,
  0x65, 0x6e, 0x73, 0x65, 0x2f, 0x4d, 0x61, 0x74, 0x4d, 0x75, 0x6c, 0x3b,
  0x73, 0x65, 0x71, 0x75, 0x65, 0x6e, 0x74, 0x69, 0x61, 0x6c, 0x2f, 0x72,
  0x65, 0x5f, 0x6c, 0x75, 0x2f, 0x52, 0x65, 0x6c, 0x75, 0x3b, 0x73, 0x65,
  0x71, 0x75, 0x65, 0x6e, 0x74, 0x69, 0x61, 0x6c, 0x2f, 0x64, 0x65, 0x6e,
  0x73, 0x65, 0x2f, 0x42, 0x69, 0x61, 0x73, 0x41, 0x64, 0x64, 0x00, 0x00,
  0x02, 0x00, 0x00, 0x00, 0x01, 0x00, 0x00, 0x00, 0x40, 0x00, 0x00, 0x00,
  0x02, 0xfe, 0xff, 0xff, 0x10, 0x00, 0x00, 0x00, 0x10, 0x00, 0x00, 0x00,
  0x09, 0x00, 0x00, 0x00, 0x28, 0x00, 0x00, 0x00, 0x84, 0xfd, 0xff, 0xff,
  0x19, 0x00, 0x00, 0x00, 0x73, 0x65, 0x71, 0x75, 0x65, 0x6e, 0x74, 0x69,
  0x61, 0x6c, 0x2f, 0x64, 0x65, 0x6e, 0x73, 0x65, 0x5f, 0x33, 0x2f, 0x4d,
  0x61, 0x74, 0x4d, 0x75, 0x6c, 0x00, 0x00, 0x00, 0x02, 0x00, 0x00, 0x00,
  0x03, 0x00, 0x00, 0x00, 0x40, 0x00, 0x00, 0x00, 0x46, 0xfe, 0xff, 0xff,
  0x10, 0x00, 0x00, 0x00, 0x10, 0x00, 0x00, 0x00, 0x08, 0x00, 0x00, 0x00,
  0x28, 0x00, 0x00, 0x00, 0xc8, 0xfd, 0xff, 0xff, 0x19, 0x00, 0x00, 0x00,
  0x73, 0x65, 0x71, 0x75, 0x65, 0x6e, 0x74, 0x69, 0x61, 0x6c, 0x2f, 0x64,
  0x65, 0x6e, 0x73, 0x65, 0x5f, 0x32, 0x2f, 0x4d, 0x61, 0x74, 0x4d, 0x75,
  0x6c, 0x00, 0x00, 0x00, 0x02, 0x00, 0x00, 0x00, 0x40, 0x00, 0x00, 0x00,
  0x01, 0x00, 0x00, 0x00, 0x8a, 0xfe, 0xff, 0xff, 0x10, 0x00, 0x00, 0x00,
  0x10, 0x00, 0x00, 0x00, 0x07, 0x00, 0x00, 0x00, 0x28, 0x00, 0x00, 0x00,
  0x0c, 0xfe, 0xff, 0xff, 0x19, 0x00, 0x00, 0x00, 0x73, 0x65, 0x71, 0x75,
  0x65, 0x6e, 0x74, 0x69, 0x61, 0x6c, 0x2f, 0x64, 0x65, 0x6e, 0x73, 0x65,
  0x5f, 0x31, 0x2f, 0x4d, 0x61, 0x74, 0x4d, 0x75, 0x6c, 0x00, 0x00, 0x00,
  0x02, 0x00, 0x00, 0x00, 0x01, 0x00, 0x00, 0x00, 0x40, 0x00, 0x00, 0x00,
  0xce, 0xfe, 0xff, 0xff, 0x10, 0x00, 0x00, 0x00, 0x10, 0x00, 0x00, 0x00,
  0x06, 0x00, 0x00, 0x00, 0x24, 0x00, 0x00, 0x00, 0x50, 0xfe, 0xff, 0xff,
  0x17, 0x00, 0x00, 0x00, 0x73, 0x65, 0x71, 0x75, 0x65, 0x6e, 0x74, 0x69,
  0x61, 0x6c, 0x2f, 0x64, 0x65, 0x6e, 0x73, 0x65, 0x2f, 0x4d, 0x61, 0x74,
  0x4d, 0x75, 0x6c, 0x00, 0x02, 0x00, 0x00, 0x00, 0x40, 0x00, 0x00, 0x00,
  0x03, 0x00, 0x00, 0x00, 0x0e, 0xff, 0xff, 0xff, 0x10, 0x00, 0x00, 0x00,
  0x10, 0x00, 0x00, 0x00, 0x05, 0x00, 0x00, 0x00, 0x38, 0x00, 0x00, 0x00,
  0x90, 0xfe, 0xff, 0xff, 0x29, 0x00, 0x00, 0x00, 0x73, 0x65, 0x71, 0x75,
  0x65, 0x6e, 0x74, 0x69, 0x61, 0x6c, 0x2f, 0x64, 0x65, 0x6e, 0x73, 0x65,
  0x5f, 0x31, 0x2f, 0x42, 0x69, 0x61, 0x73, 0x41, 0x64, 0x64, 0x2f, 0x52,
  0x65, 0x61, 0x64, 0x56, 0x61, 0x72, 0x69, 0x61, 0x62, 0x6c, 0x65, 0x4f,
  0x70, 0x00, 0x00, 0x00, 0x01, 0x00, 0x00, 0x00, 0x01, 0x00, 0x00, 0x00,
  0x5e, 0xff, 0xff, 0xff, 0x10, 0x00, 0x00, 0x00, 0x10, 0x00, 0x00, 0x00,
  0x04, 0x00, 0x00, 0x00, 0x38, 0x00, 0x00, 0x00, 0xe0, 0xfe, 0xff, 0xff,
  0x29, 0x00, 0x00, 0x00, 0x73, 0x65, 0x71, 0x75, 0x65, 0x6e, 0x74, 0x69,
  0x61, 0x6c, 0x2f, 0x64, 0x65, 0x6e, 0x73, 0x65, 0x5f, 0x32, 0x2f, 0x42,
  0x69, 0x61, 0x73, 0x41, 0x64, 0x64, 0x2f, 0x52, 0x65, 0x61, 0x64, 0x56,
  0x61, 0x72, 0x69, 0x61, 0x62, 0x6c, 0x65, 0x4f, 0x70, 0x00, 0x00, 0x00,
  0x01, 0x00, 0x00, 0x00, 0x40, 0x00, 0x00, 0x00, 0xae, 0xff, 0xff, 0xff,
  0x10, 0x00, 0x00, 0x00, 0x10, 0x00, 0x00, 0x00, 0x03, 0x00, 0x00, 0x00,
  0x38, 0x00, 0x00, 0x00, 0x30, 0xff, 0xff, 0xff, 0x29, 0x00, 0x00, 0x00,
  0x73, 0x65, 0x71, 0x75, 0x65, 0x6e, 0x74, 0x69, 0x61, 0x6c, 0x2f, 0x64,
  0x65, 0x6e, 0x73, 0x65, 0x5f, 0x33, 0x2f, 0x42, 0x69, 0x61, 0x73, 0x41,
  0x64, 0x64, 0x2f, 0x52, 0x65, 0x61, 0x64, 0x56, 0x61, 0x72, 0x69, 0x61,
  0x62, 0x6c, 0x65, 0x4f, 0x70, 0x00, 0x00, 0x00, 0x01, 0x00, 0x00, 0x00,
  0x03, 0x00, 0x00, 0x00, 0x00, 0x00, 0x0e, 0x00, 0x14, 0x00, 0x10, 0x00,
  0x00, 0x00, 0x0c, 0x00, 0x08, 0x00, 0x04, 0x00, 0x0e, 0x00, 0x00, 0x00,
  0x10, 0x00, 0x00, 0x00, 0x10, 0x00, 0x00, 0x00, 0x02, 0x00, 0x00, 0x00,
  0x34, 0x00, 0x00, 0x00, 0x90, 0xff, 0xff, 0xff, 0x27, 0x00, 0x00, 0x00,
  0x73, 0x65, 0x71, 0x75, 0x65, 0x6e, 0x74, 0x69, 0x61, 0x6c, 0x2f, 0x64,
  0x65, 0x6e, 0x73, 0x65, 0x2f, 0x42, 0x69, 0x61, 0x73, 0x41, 0x64, 0x64,
  0x2f, 0x52, 0x65, 0x61, 0x64, 0x56, 0x61, 0x72, 0x69, 0x61, 0x62, 0x6c,
  0x65, 0x4f, 0x70, 0x00, 0x01, 0x00, 0x00, 0x00, 0x40, 0x00, 0x00, 0x00,
  0x14, 0x00, 0x18, 0x00, 0x14, 0x00, 0x00, 0x00, 0x10, 0x00, 0x0c, 0x00,
  0x08, 0x00, 0x00, 0x00, 0x00, 0x00, 0x04, 0x00, 0x14, 0x00, 0x00, 0x00,
  0x14, 0x00, 0x00, 0x00, 0x20, 0x00, 0x00, 0x00, 0x20, 0x00, 0x00, 0x00,
  0x01, 0x00, 0x00, 0x00, 0x3c, 0x00, 0x00, 0x00, 0x02, 0x00, 0x00, 0x00,
  0xff, 0xff, 0xff, 0xff, 0x03, 0x00, 0x00, 0x00, 0x04, 0x00, 0x04, 0x00,
  0x04, 0x00, 0x00, 0x00, 0x1d, 0x00, 0x00, 0x00, 0x73, 0x65, 0x72, 0x76,
  0x69, 0x6e, 0x67, 0x5f, 0x64, 0x65, 0x66, 0x61, 0x75, 0x6c, 0x74, 0x5f,
  0x64, 0x65, 0x6e, 0x73, 0x65, 0x5f, 0x69, 0x6e, 0x70, 0x75, 0x74, 0x3a,
  0x30, 0x00, 0x00, 0x00, 0x02, 0x00, 0x00, 0x00, 0x01, 0x00, 0x00, 0x00,
  0x03, 0x00, 0x00, 0x00, 0x03, 0x00, 0x00, 0x00, 0x30, 0x00, 0x00, 0x00,
  0x14, 0x00, 0x00, 0x00, 0x04, 0x00, 0x00, 0x00, 0xe8, 0xff, 0xff, 0xff,
  0x1c, 0x00, 0x00, 0x00, 0x00, 0x00, 0x00, 0x1c, 0xf4, 0xff, 0xff, 0xff,
  0x62, 0x00, 0x00, 0x00, 0x00, 0x00, 0x00, 0x62, 0x0c, 0x00, 0x0c, 0x00,
  0x0b, 0x00, 0x00, 0x00, 0x00, 0x00, 0x04, 0x00, 0x0c, 0x00, 0x00, 0x00,
  0x09, 0x00, 0x00, 0x00, 0x00, 0x00, 0x00, 0x09
};
const int g_model_len = 5132;
